#ifdef __has_attribute
#define HAVE_ATTRIBUTE(x) __has_attribute(x)
#else
#define HAVE_ATTRIBUTE(x) 0
#endif
#if HAVE_ATTRIBUTE(aligned) || (defined(__GNUC__) && !defined(__clang__))
#define DATA_ALIGN_ATTRIBUTE __attribute__((aligned(4)))
#else
#define DATA_ALIGN_ATTRIBUTE
#endif
const unsigned char model_data[] DATA_ALIGN_ATTRIBUTE = {
	0x1c, 0x00, 0x00, 0x00, 0x54, 0x46, 0x4c, 0x33, 0x14, 0x00, 0x20, 0x00, 
	0x04, 0x00, 0x08, 0x00, 0x0c, 0x00, 0x10, 0x00, 0x14, 0x00, 0x00, 0x00, 
	0x18, 0x00, 0x1c, 0x00, 0x14, 0x00, 0x00, 0x00, 0x03, 0x00, 0x00, 0x00, 
	0x18, 0x00, 0x00, 0x00, 0x1c, 0x00, 0x00, 0x00, 0x24, 0x01, 0x00, 0x00, 
	0x1c, 0x00, 0x00, 0x00, 0xcc, 0x00, 0x00, 0x00, 0x48, 0x00, 0x00, 0x00, 
	0x01, 0x00, 0x00, 0x00, 0x4c, 0x03, 0x00, 0x00, 0x01, 0x00, 0x00, 0x00, 
	0x2c, 0x01, 0x00, 0x00, 0x0c, 0x00, 0x00, 0x00, 0x04, 0x0b, 0x00, 0x00, 
	0x00, 0x0b, 0x00, 0x00, 0x38, 0x0a, 0x00, 0x00, 0xa8, 0x09, 0x00, 0x00, 
	0x28, 0x09, 0x00, 0x00, 0x98, 0x08, 0x00, 0x00, 0x44, 0x04, 0x00, 0x00, 
	0xb0, 0x03, 0x00, 0x00, 0xe4, 0x0a, 0x00, 0x00, 0xe0, 0x0a, 0x00, 0x00, 
	0xdc, 0x0a, 0x00, 0x00, 0xb8, 0x00, 0x00, 0x00, 0x01, 0x00, 0x00, 0x00, 
	0x10, 0x00, 0x00, 0x00, 0x00, 0x00, 0x0a, 0x00, 0x10, 0x00, 0x0c, 0x00, 
	0x08, 0x00, 0x04, 0x00, 0x0a, 0x00, 0x00, 0x00, 0x0c, 0x00, 0x00, 0x00, 
	0x1c, 0x00, 0x00, 0x00, 0x20, 0x00, 0x00, 0x00, 0x0f, 0x00, 0x00, 0x00, 
	0x73, 0x65, 0x72, 0x76, 0x69, 0x6e, 0x67, 0x5f, 0x64, 0x65, 0x66, 0x61, 
	0x75, 0x6c, 0x74, 0x00, 0x01, 0x00, 0x00, 0x00, 0x14, 0x00, 0x00, 0x00, 
	0x01, 0x00, 0x00, 0x00, 0x24, 0x00, 0x00, 0x00, 0x08, 0x00, 0x0c, 0x00, 
	0x08, 0x00, 0x04, 0x00, 0x08, 0x00, 0x00, 0x00, 0x09, 0x00, 0x00, 0x00, 
	0x04, 0x00, 0x00, 0x00, 0x07, 0x00, 0x00, 0x00, 0x64, 0x65, 0x6e, 0x73, 
	0x65, 0x5f, 0x32, 0x00, 0x5e, 0xf6, 0xff, 0xff, 0x04, 0x00, 0x00, 0x00, 
	0x0b, 0x00, 0x00, 0x00, 0x64, 0x65, 0x6e, 0x73, 0x65, 0x5f, 0x69, 0x6e, 
	0x70, 0x75, 0x74, 0x00, 0x01, 0x00, 0x00, 0x00, 0x0c, 0x00, 0x00, 0x00, 
	0x08, 0x00, 0x0c, 0x00, 0x04, 0x00, 0x08, 0x00, 0x08, 0x00, 0x00, 0x00, 
	0x08, 0x00, 0x00, 0x00, 0x0b, 0x00, 0x00, 0x00, 0x13, 0x00, 0x00, 0x00, 
	0x6d, 0x69, 0x6e, 0x5f, 0x72, 0x75, 0x6e, 0x74, 0x69, 0x6d, 0x65, 0x5f, 
	0x76, 0x65, 0x72, 0x73, 0x69, 0x6f, 0x6e, 0x00, 0xaa, 0xf6, 0xff, 0xff, 
	0x04, 0x00, 0x00, 0x00, 0x10, 0x00, 0x00, 0x00, 0x31, 0x2e, 0x35, 0x2e, 
	0x30, 0x00, 0x00, 0x00, 0x00, 0x00, 0x00, 0x00, 0x00, 0x00, 0x00, 0x00, 
	0x0f, 0x00, 0x00, 0x00, 0x4d, 0x4c, 0x49, 0x52, 0x20, 0x43, 0x6f, 0x6e, 
	0x76, 0x65, 0x72, 0x74, 0x65, 0x64, 0x2e, 0x00, 0x00, 0x00, 0x0e, 0x00, 
	0x18, 0x00, 0x04, 0x00, 0x08, 0x00, 0x0c, 0x00, 0x10, 0x00, 0x14, 0x00, 
	0x0e, 0x00, 0x00, 0x00, 0x14, 0x00, 0x00, 0x00, 0x3c, 0x00, 0x00, 0x00, 
	0x40, 0x00, 0x00, 0x00, 0x44, 0x00, 0x00, 0x00, 0x50, 0x00, 0x00, 0x00, 
	0x0a, 0x00, 0x00, 0x00, 0x68, 0x09, 0x00, 0x00, 0x1c, 0x09, 0x00, 0x00, 
	0xb8, 0x08, 0x00, 0x00, 0x38, 0x08, 0x00, 0x00, 0xa8, 0x07, 0x00, 0x00, 
	0x14, 0x07, 0x00, 0x00, 0xc0, 0x02, 0x00, 0x00, 0xf0, 0x01, 0x00, 0x00, 
	0xfc, 0x00, 0x00, 0x00, 0x60, 0x00, 0x00, 0x00, 0x01, 0x00, 0x00, 0x00, 
	0x00, 0x00, 0x00, 0x00, 0x01, 0x00, 0x00, 0x00, 0x09, 0x00, 0x00, 0x00, 
	0x03, 0x00, 0x00, 0x00, 0x78, 0x01, 0x00, 0x00, 0xa8, 0x00, 0x00, 0x00, 
	0x10, 0x00, 0x00, 0x00, 0x04, 0x00, 0x00, 0x00, 0x6d, 0x61, 0x69, 0x6e, 
	0x00, 0x00, 0x00, 0x00, 0x7a, 0xff, 0xff, 0xff, 0x00, 0x00, 0x00, 0x08, 
	0x18, 0x00, 0x00, 0x00, 0x0c, 0x00, 0x00, 0x00, 0x04, 0x00, 0x00, 0x00, 
	0xa8, 0xf6, 0xff, 0xff, 0x01, 0x00, 0x00, 0x00, 0x09, 0x00, 0x00, 0x00, 
	0x03, 0x00, 0x00, 0x00, 0x08, 0x00, 0x00, 0x00, 0x06, 0x00, 0x00, 0x00, 
	0x01, 0x00, 0x00, 0x00, 0x30, 0xf7, 0xff, 0xff, 0x14, 0x00, 0x00, 0x00, 
	0x0a, 0x00, 0x00, 0x00, 0x18, 0x00, 0x00, 0x00, 0x40, 0x00, 0x00, 0x00, 
	0x30, 0x00, 0x00, 0x00, 0x02, 0x00, 0x00, 0x00, 0x01, 0x00, 0x00, 0x00, 
	0x01, 0x00, 0x00, 0x00, 0x19, 0x00, 0x00, 0x00, 0x53, 0x74, 0x61, 0x74, 
	0x65, 0x66, 0x75, 0x6c, 0x50, 0x61, 0x72, 0x74, 0x69, 0x74, 0x69, 0x6f, 
	0x6e, 0x65, 0x64, 0x43, 0x61, 0x6c, 0x6c, 0x3a, 0x30, 0x00, 0x00, 0x00, 
	0x02, 0x00, 0x00, 0x00, 0xff, 0xff, 0xff, 0xff, 0x01, 0x00, 0x00, 0x00, 
	0xe4, 0xf7, 0xff, 0xff, 0x00, 0x00, 0x0e, 0x00, 0x14, 0x00, 0x00, 0x00, 
	0x08, 0x00, 0x0c, 0x00, 0x07, 0x00, 0x10, 0x00, 0x0e, 0x00, 0x00, 0x00, 
	0x00, 0x00, 0x00, 0x08, 0x1c, 0x00, 0x00, 0x00, 0x10, 0x00, 0x00, 0x00, 
	0x04, 0x00, 0x00, 0x00, 0x32, 0xff, 0xff, 0xff, 0x00, 0x00, 0x00, 0x01, 
	0x01, 0x00, 0x00, 0x00, 0x08, 0x00, 0x00, 0x00, 0x03, 0x00, 0x00, 0x00, 
	0x07, 0x00, 0x00, 0x00, 0x05, 0x00, 0x00, 0x00, 0x02, 0x00, 0x00, 0x00, 
	0xc8, 0xf7, 0xff, 0xff, 0x14, 0x00, 0x00, 0x00, 0x09, 0x00, 0x00, 0x00, 
	0x18, 0x00, 0x00, 0x00, 0x74, 0x00, 0x00, 0x00, 0x64, 0x00, 0x00, 0x00, 
	0x02, 0x00, 0x00, 0x00, 0x01, 0x00, 0x00, 0x00, 0x10, 0x00, 0x00, 0x00, 
	0x4c, 0x00, 0x00, 0x00, 0x73, 0x65, 0x71, 0x75, 0x65, 0x6e, 0x74, 0x69, 
	0x61, 0x6c, 0x2f, 0x64, 0x65, 0x6e, 0x73, 0x65, 0x5f, 0x31, 0x2f, 0x4d, 
	0x61, 0x74, 0x4d, 0x75, 0x6c, 0x3b, 0x73, 0x65, 0x71, 0x75, 0x65, 0x6e, 
	0x74, 0x69, 0x61, 0x6c, 0x2f, 0x64, 0x65, 0x6e, 0x73, 0x65, 0x5f, 0x31, 
	0x2f, 0x52, 0x65, 0x6c, 0x75, 0x3b, 0x73, 0x65, 0x71, 0x75, 0x65, 0x6e, 
	0x74, 0x69, 0x61, 0x6c, 0x2f, 0x64, 0x65, 0x6e, 0x73, 0x65, 0x5f, 0x31, 
	0x2f, 0x42, 0x69, 0x61, 0x73, 0x41, 0x64, 0x64, 0x00, 0x00, 0x00, 0x00, 
	0x02, 0x00, 0x00, 0x00, 0xff, 0xff, 0xff, 0xff, 0x10, 0x00, 0x00, 0x00, 
	0xb0, 0xf8, 0xff, 0xff, 0x00, 0x00, 0x0e, 0x00, 0x16, 0x00, 0x00, 0x00, 
	0x08, 0x00, 0x0c, 0x00, 0x07, 0x00, 0x10, 0x00, 0x0e, 0x00, 0x00, 0x00, 
	0x00, 0x00, 0x00, 0x08, 0x24, 0x00, 0x00, 0x00, 0x18, 0x00, 0x00, 0x00, 
	0x0c, 0x00, 0x00, 0x00, 0x00, 0x00, 0x06, 0x00, 0x08, 0x00, 0x07, 0x00, 
	0x06, 0x00, 0x00, 0x00, 0x00, 0x00, 0x00, 0x01, 0x01, 0x00, 0x00, 0x00, 
	0x07, 0x00, 0x00, 0x00, 0x03, 0x00, 0x00, 0x00, 0x00, 0x00, 0x00, 0x00, 
	0x04, 0x00, 0x00, 0x00, 0x03, 0x00, 0x00, 0x00, 0x0c, 0x00, 0x10, 0x00, 
	0x0b, 0x00, 0x00, 0x00, 0x0c, 0x00, 0x04, 0x00, 0x0c, 0x00, 0x00, 0x00, 
	0x09, 0x00, 0x00, 0x00, 0x00, 0x00, 0x00, 0x09, 0x01, 0x00, 0x00, 0x00, 
	0xb8, 0xf8, 0xff, 0xff, 0x14, 0x00, 0x00, 0x00, 0x08, 0x00, 0x00, 0x00, 
	0x18, 0x00, 0x00, 0x00, 0x6c, 0x00, 0x00, 0x00, 0x5c, 0x00, 0x00, 0x00, 
	0x02, 0x00, 0x00, 0x00, 0x01, 0x00, 0x00, 0x00, 0x10, 0x00, 0x00, 0x00, 
	0x46, 0x00, 0x00, 0x00, 0x73, 0x65, 0x71, 0x75, 0x65, 0x6e, 0x74, 0x69, 
	0x61, 0x6c, 0x2f, 0x64, 0x65, 0x6e, 0x73, 0x65, 0x2f, 0x4d, 0x61, 0x74, 
	0x4d, 0x75, 0x6c, 0x3b, 0x73, 0x65, 0x71, 0x75, 0x65, 0x6e, 0x74, 0x69, 
	0x61, 0x6c, 0x2f, 0x64, 0x65, 0x6e, 0x73, 0x65, 0x2f, 0x52, 0x65, 0x6c, 
	0x75, 0x3b, 0x73, 0x65, 0x71, 0x75, 0x65, 0x6e, 0x74, 0x69, 0x61, 0x6c, 
	0x2f, 0x64, 0x65, 0x6e, 0x73, 0x65, 0x2f, 0x42, 0x69, 0x61, 0x73, 0x41, 
	0x64, 0x64, 0x00, 0x00, 0x02, 0x00, 0x00, 0x00, 0xff, 0xff, 0xff, 0xff, 
	0x10, 0x00, 0x00, 0x00, 0xc8, 0xf8, 0xff, 0xff, 0x92, 0xf9, 0xff, 0xff, 
	0x04, 0x00, 0x00, 0x00, 0x40, 0x00, 0x00, 0x00, 0x93, 0x51, 0xf2, 0xbe, 
	0xdc, 0xe5, 0xa0, 0x3e, 0x3e, 0x0c, 0x15, 0xbf, 0x1b, 0xc3, 0x53, 0xbe, 
	0xc7, 0xed, 0xbb, 0xbe, 0x7a, 0xa8, 0xb8, 0x3e, 0x83, 0x18, 0x20, 0xbf, 
	0x97, 0x58, 0xbf, 0xbe, 0xbb, 0xb2, 0xfb, 0xbe, 0x47, 0x99, 0x41, 0x3e, 
	0x4c, 0x41, 0xd5, 0x3e, 0xee, 0xc3, 0xb9, 0xbe, 0xc8, 0x8d, 0xc2, 0xbd, 
	0x84, 0xff, 0x68, 0xbf, 0x20, 0x4e, 0x05, 0xbf, 0x44, 0x96, 0x6d, 0xbe, 
	0xc6, 0xf9, 0xff, 0xff, 0x10, 0x00, 0x00, 0x00, 0x07, 0x00, 0x00, 0x00, 
	0x14, 0x00, 0x00, 0x00, 0x30, 0x00, 0x00, 0x00, 0x02, 0x00, 0x00, 0x00, 
	0x01, 0x00, 0x00, 0x00, 0x10, 0x00, 0x00, 0x00, 0x19, 0x00, 0x00, 0x00, 
	0x73, 0x65, 0x71, 0x75, 0x65, 0x6e, 0x74, 0x69, 0x61, 0x6c, 0x2f, 0x64, 
	0x65, 0x6e, 0x73, 0x65, 0x5f, 0x32, 0x2f, 0x4d, 0x61, 0x74, 0x4d, 0x75, 
	0x6c, 0x00, 0x00, 0x00, 0x58, 0xf9, 0xff, 0xff, 0x22, 0xfa, 0xff, 0xff, 
	0x04, 0x00, 0x00, 0x00, 0x00, 0x04, 0x00, 0x00, 0x62, 0x94, 0x16, 0x3e, 
	0x2c, 0x02, 0xb4, 0x3d, 0xef, 0x70, 0xb8, 0x3e, 0x6c, 0xc7, 0x54, 0xbe, 
	0x0d, 0x86, 0x32, 0x3e, 0xa8, 0x44, 0x7a, 0x3d, 0xf0, 0xc1, 0xfa, 0x3c, 
	0x36, 0x5f, 0xdd, 0xbd, 0x9d, 0xd8, 0xaf, 0xbe, 0xf8, 0xc0, 0x4d, 0x3d, 
	0x34, 0xba, 0xa7, 0xbe, 0xe2, 0x14, 0x5d, 0x3e, 0x37, 0x43, 0xb9, 0x3e, 
	0x7f, 0x50, 0x5a, 0x3e, 0x3e, 0x03, 0x93, 0xbe, 0x20, 0xe2, 0x1b, 0xbe, 
	0x96, 0x69, 0x0c, 0x3f, 0x5a, 0x35, 0x81, 0xbe, 0x9e, 0x4a, 0xe3, 0x3e, 
	0xca, 0x99, 0x7e, 0xbe, 0x42, 0xed, 0x57, 0xbe, 0x38, 0xfa, 0x08, 0xbd, 
	0xc1, 0xd8, 0xd0, 0xbe, 0xf2, 0xaa, 0xa6, 0x3e, 0x7d, 0x74, 0x76, 0xbe, 
	0x1f, 0xfb, 0xbd, 0xbe, 0xc0, 0xf7, 0xab, 0xbc, 0x87, 0xb1, 0x93, 0x3e, 
	0xa5, 0x70, 0xc9, 0x3e, 0xc3, 0x58, 0xe5, 0x3e, 0x5e, 0x0b, 0x22, 0x3e, 
	0xba, 0xc4, 0x22, 0xbe, 0xa6, 0xb5, 0xd4, 0xbe, 0x66, 0xae, 0x39, 0x3e, 
	0xb0, 0xd5, 0x8f, 0xbc, 0xed, 0x6f, 0x20, 0xbd, 0x7b, 0x91, 0xfe, 0xbd, 
	0x10, 0x53, 0x92, 0xbc, 0x13, 0xb0, 0x96, 0x3e, 0x0d, 0x86, 0x7c, 0x3e, 
	0x2a, 0xf3, 0xbb, 0x3d, 0x11, 0x9d, 0xa1, 0x3e, 0x04, 0x31, 0x94, 0xbe, 
	0x87, 0x7c, 0x0a, 0xbe, 0x63, 0xb6, 0xd6, 0x3e, 0x2b, 0x31, 0x9a, 0x3e, 
	0xc9, 0xbf, 0xc7, 0x3e, 0xf8, 0xfc, 0x1b, 0xbe, 0x80, 0x3f, 0x4c, 0x3e, 
	0x91, 0x5f, 0x9f, 0xbe, 0x67, 0x44, 0x42, 0xbe, 0x43, 0xb3, 0x23, 0x3e, 
	0x19, 0x96, 0xbe, 0x3e, 0x5a, 0xb5, 0x2a, 0x3e, 0xbe, 0x03, 0x1f, 0xbe, 
	0xda, 0x5d, 0x0b, 0xbe, 0x01, 0xee, 0xdc, 0x3a, 0x4a, 0x44, 0x32, 0xbe, 
	0x00, 0x9e, 0xc6, 0xba, 0xf2, 0x4f, 0x0e, 0x3d, 0x27, 0x96, 0xb7, 0x3e, 
	0xc2, 0xc4, 0x39, 0x3e, 0xa1, 0x2f, 0xa2, 0x3e, 0x0c, 0xdd, 0x68, 0xbe, 
	0x28, 0x24, 0x53, 0x3e, 0x33, 0x0d, 0xda, 0x3e, 0x19, 0x13, 0xb7, 0xbe, 
	0xc3, 0xff, 0x8f, 0xbe, 0xbb, 0x1a, 0xc3, 0x3e, 0x3c, 0xd9, 0x9d, 0xbd, 
	0xf4, 0x6b, 0xa5, 0xbe, 0xfc, 0x52, 0x72, 0x3e, 0x08, 0x20, 0x5c, 0xbd, 
	0x48, 0x4c, 0x14, 0x3d, 0x70, 0x63, 0x92, 0xbe, 0xf7, 0x37, 0x9f, 0x3e, 
	0x02, 0xba, 0x10, 0x3e, 0xd1, 0x7a, 0xbd, 0xbe, 0x7e, 0x20, 0x28, 0x3e, 
	0xc2, 0x4a, 0x18, 0x3e, 0x82, 0x27, 0x85, 0xbd, 0x96, 0x67, 0x04, 0xbe, 
	0x27, 0xe8, 0x89, 0x3e, 0x9a, 0x08, 0x74, 0xbe, 0xdf, 0xc0, 0xa0, 0xbe, 
	0x00, 0x1e, 0xfa, 0xba, 0x10, 0x49, 0x7d, 0xbd, 0x69, 0x46, 0xbe, 0xbd, 
	0xad, 0x24, 0xda, 0x3d, 0x46, 0x4d, 0x7a, 0xbe, 0x0f, 0x7d, 0xd4, 0x3e, 
	0xc6, 0xba, 0xd5, 0xbe, 0x68, 0x04, 0xa7, 0xbe, 0xb7, 0xd5, 0xb7, 0x3d, 
	0x5f, 0x5b, 0xc1, 0x3e, 0x1e, 0xf3, 0x39, 0xbe, 0xfe, 0xbf, 0xec, 0xbe, 
	0x36, 0x0e, 0x3c, 0x3e, 0xff, 0xfe, 0x9f, 0x3e, 0x7e, 0x2f, 0xe1, 0x3e, 
	0xd7, 0xd6, 0xcc, 0x3e, 0xf0, 0x0a, 0x2c, 0xbe, 0x10, 0x19, 0x88, 0xbc, 
	0x21, 0xa7, 0xd3, 0xbe, 0x02, 0x97, 0x99, 0x3d, 0x91, 0x61, 0xb8, 0x3e, 
	0xa1, 0xe9, 0x85, 0xbe, 0x59, 0xbb, 0x1c, 0x3e, 0x56, 0x5c, 0x93, 0xbe, 
	0xa5, 0x59, 0x0e, 0x3e, 0xe5, 0x8b, 0x9f, 0x3e, 0x00, 0x80, 0x4e, 0x3b, 
	0x37, 0xf2, 0x6a, 0xbe, 0xc9, 0x8c, 0xb3, 0x3e, 0x14, 0x53, 0x1a, 0x3e, 
	0x86, 0xed, 0xd5, 0xbe, 0xca, 0xe1, 0x15, 0xbe, 0x6b, 0xb2, 0x80, 0x3e, 
	0xd3, 0xfc, 0xb8, 0x3e, 0x8a, 0x44, 0x66, 0xbe, 0xb0, 0xe0, 0x85, 0x3e, 
	0x94, 0x59, 0x99, 0x3d, 0xa0, 0x43, 0xfc, 0xbd, 0x9b, 0xb0, 0xcd, 0x3e, 
	0x40, 0x2a, 0x89, 0x3d, 0xc6, 0x2c, 0xa3, 0x3e, 0xe9, 0x81, 0xdd, 0x3e, 
	0xd0, 0xa1, 0xb7, 0xbc, 0x3f, 0x16, 0x2b, 0x3d, 0xde, 0x25, 0x29, 0xbe, 
	0xee, 0x79, 0xad, 0xbe, 0xa0, 0xe1, 0xa1, 0x3e, 0x5c, 0x70, 0xe3, 0x3e, 
	0x47, 0x9f, 0xb7, 0x3e, 0xfd, 0x37, 0xa7, 0x3e, 0x41, 0x2d, 0xa7, 0xbe, 
	0x90, 0x3f, 0xf7, 0x3d, 0xbb, 0x3b, 0xae, 0x3e, 0xed, 0x26, 0xcc, 0x3e, 
	0x38, 0xa4, 0x19, 0x3e, 0x92, 0x76, 0x43, 0x3e, 0x02, 0xed, 0xaa, 0x3e, 
	0x8e, 0xd7, 0x3b, 0x3e, 0x54, 0x0c, 0x69, 0xbe, 0x6e, 0xdb, 0xcb, 0x3d, 
	0x19, 0x7e, 0xbc, 0x3e, 0xda, 0xcc, 0x57, 0xbe, 0xe1, 0x9d, 0xdd, 0xbe, 
	0x40, 0x00, 0xfd, 0xbb, 0x14, 0xa6, 0xfc, 0x3d, 0x00, 0x9f, 0xcb, 0xbb, 
	0xe4, 0x3d, 0x22, 0x3e, 0x21, 0xf7, 0xdc, 0xbe, 0x24, 0xaa, 0x3a, 0xbe, 
	0x87, 0x8e, 0x9d, 0x3e, 0xea, 0x94, 0x84, 0xbe, 0xb8, 0x1b, 0x05, 0x3d, 
	0x70, 0xc3, 0x5f, 0xbe, 0x73, 0x66, 0x87, 0x3e, 0x7c, 0x21, 0xc6, 0xbd, 
	0xd1, 0xa0, 0x54, 0x3e, 0x07, 0x14, 0xb0, 0x3e, 0x1d, 0xb6, 0xce, 0xbd, 
	0x64, 0xef, 0x8d, 0x3d, 0xe7, 0xb9, 0xaa, 0x3e, 0x8f, 0xb2, 0x9d, 0xbe, 
	0x2f, 0x2b, 0x6f, 0xbe, 0x7c, 0xd6, 0xac, 0x3e, 0x3d, 0x8a, 0x19, 0x3e, 
	0x09, 0x36, 0x3e, 0xbe, 0x0e, 0xd7, 0x9b, 0xbe, 0xdc, 0x2d, 0x84, 0xbe, 
	0xd2, 0x8d, 0x3f, 0xbe, 0x28, 0xea, 0x0e, 0x3e, 0x26, 0x88, 0x71, 0x3e, 
	0x90, 0x8e, 0x4a, 0xbd, 0x88, 0xee, 0x5a, 0x3e, 0x76, 0x8c, 0x60, 0x3e, 
	0x09, 0x38, 0xd8, 0xbe, 0x8e, 0x48, 0x80, 0x3e, 0xd7, 0x75, 0x25, 0xbe, 
	0xe8, 0xf1, 0x70, 0x3d, 0x20, 0x93, 0x84, 0x3c, 0xf4, 0x8f, 0x98, 0x3e, 
	0x2f, 0x43, 0x46, 0xbe, 0x2c, 0xb9, 0xd9, 0x3d, 0x73, 0x8e, 0x48, 0xbe, 
	0xd7, 0x1f, 0x5b, 0x3e, 0x6b, 0xd1, 0xc0, 0x3e, 0x06, 0xeb, 0x90, 0x3e, 
	0x2c, 0x7d, 0xf7, 0xbd, 0x28, 0xfc, 0x92, 0xbd, 0xf6, 0x92, 0x49, 0xbe, 
	0x0d, 0x3f, 0xaf, 0xbe, 0xc4, 0xfa, 0x81, 0xbe, 0x40, 0xb1, 0xac, 0xbd, 
	0x5a, 0x57, 0x8a, 0xbe, 0x40, 0x3d, 0xf7, 0x3c, 0x68, 0x3a, 0x9f, 0xbe, 
	0x94, 0x19, 0x89, 0x3d, 0x98, 0xcf, 0x42, 0x3d, 0xae, 0xa7, 0x33, 0x3e, 
	0xa6, 0xb3, 0x0c, 0xbe, 0xbc, 0xfa, 0xdf, 0xbd, 0xf2, 0x8a, 0x8f, 0xbe, 
	0x16, 0xe8, 0x7b, 0x3e, 0x1c, 0xe9, 0xee, 0x3d, 0x28, 0x90, 0x8d, 0xbe, 
	0x1f, 0xf0, 0x2b, 0x3f, 0xcd, 0x9c, 0xc4, 0xbe, 0xfc, 0x9a, 0xec, 0xbd, 
	0xbd, 0xa2, 0x7a, 0xbe, 0x97, 0x7e, 0x2d, 0xbf, 0x25, 0xaf, 0xa7, 0x3e, 
	0x1e, 0x4d, 0x91, 0xbe, 0xd5, 0xcf, 0x3e, 0xba, 0x99, 0x23, 0x01, 0xbd, 
	0xb2, 0x16, 0x63, 0x3e, 0x2f, 0x0d, 0x94, 0x3e, 0x8b, 0xa4, 0x52, 0xbf, 
	0x23, 0x99, 0x8c, 0x3e, 0x90, 0xa7, 0xe0, 0xbe, 0xf8, 0x0a, 0x4c, 0x3d, 
	0x82, 0xb0, 0x09, 0xbe, 0xba, 0xa0, 0x9e, 0xbe, 0x96, 0x63, 0x3a, 0x3e, 
	0xe0, 0x9a, 0x30, 0xbc, 0x8f, 0x57, 0xbf, 0xbe, 0xc8, 0xea, 0x0f, 0x3d, 
	0xd4, 0x2f, 0xd2, 0x3d, 0xf8, 0xb6, 0x2f, 0xbd, 0x6c, 0xaa, 0xa4, 0x3d, 
	0x22, 0x14, 0x2a, 0xbe, 0x6e, 0x17, 0x37, 0x3e, 0x82, 0x02, 0x14, 0x3e, 
	0x4a, 0xf1, 0x62, 0x3e, 0xc6, 0xf5, 0x4f, 0x3e, 0x6a, 0xe1, 0x39, 0x3e, 
	0x6d, 0x1e, 0xd6, 0xbe, 0x91, 0xdc, 0x99, 0xbe, 0xb7, 0x05, 0xc6, 0xbe, 
	0x2c, 0xe9, 0xc4, 0x3d, 0x32, 0xe7, 0x48, 0x3e, 0x80, 0xd5, 0x38, 0x3c, 
	0xbb, 0xf8, 0xb1, 0xbe, 0x69, 0x78, 0x80, 0xbe, 0xbc, 0x26, 0xda, 0x3d, 
	0xb4, 0xf9, 0xd5, 0xbe, 0x3e, 0x42, 0x78, 0x3e, 0x9c, 0x8a, 0xe0, 0x3d, 
	0x4a, 0xd1, 0x7d, 0xbe, 0x4a, 0xa3, 0x68, 0x3e, 0x18, 0x0f, 0x2f, 0x3d, 
	0x2c, 0xcf, 0x9e, 0x3d, 0x3e, 0x47, 0x1e, 0x3e, 0xa2, 0x46, 0x30, 0x3e, 
	0x16, 0xfe, 0xff, 0xff, 0x10, 0x00, 0x00, 0x00, 0x06, 0x00, 0x00, 0x00, 
	0x14, 0x00, 0x00, 0x00, 0x30, 0x00, 0x00, 0x00, 0x02, 0x00, 0x00, 0x00, 
	0x10, 0x00, 0x00, 0x00, 0x10, 0x00, 0x00, 0x00, 0x19, 0x00, 0x00, 0x00, 
	0x73, 0x65, 0x71, 0x75, 0x65, 0x6e, 0x74, 0x69, 0x61, 0x6c, 0x2f, 0x64, 
	0x65, 0x6e, 0x73, 0x65, 0x5f, 0x31, 0x2f, 0x4d, 0x61, 0x74, 0x4d, 0x75, 
	0x6c, 0x00, 0x00, 0x00, 0xa8, 0xfd, 0xff, 0xff, 0x72, 0xfe, 0xff, 0xff, 
	0x04, 0x00, 0x00, 0x00, 0x40, 0x00, 0x00, 0x00, 0xc8, 0xa9, 0x16, 0x3d, 
	0x96, 0x10, 0x71, 0xbe, 0x2e, 0x92, 0x78, 0x3e, 0x4f, 0xaa, 0xc8, 0x3e, 
	0x16, 0x83, 0xcd, 0x3e, 0x5d, 0x80, 0x83, 0xbe, 0xc5, 0xbb, 0xc8, 0xbe, 
	0x73, 0x70, 0xab, 0x3e, 0x5a, 0xe5, 0x80, 0x3d, 0x69, 0x27, 0xb9, 0xbe, 
	0xcd, 0x6c, 0xf5, 0xbe, 0x86, 0x3d, 0xe6, 0x3e, 0x1e, 0xa2, 0x14, 0xbf, 
	0x9c, 0x55, 0x51, 0x3e, 0xa0, 0x54, 0xd7, 0xbc, 0xd1, 0xaa, 0xb9, 0xbe, 
	0xa6, 0xfe, 0xff, 0xff, 0x10, 0x00, 0x00, 0x00, 0x05, 0x00, 0x00, 0x00, 
	0x14, 0x00, 0x00, 0x00, 0x2c, 0x00, 0x00, 0x00, 0x02, 0x00, 0x00, 0x00, 
	0x10, 0x00, 0x00, 0x00, 0x01, 0x00, 0x00, 0x00, 0x17, 0x00, 0x00, 0x00, 
	0x73, 0x65, 0x71, 0x75, 0x65, 0x6e, 0x74, 0x69, 0x61, 0x6c, 0x2f, 0x64, 
	0x65, 0x6e, 0x73, 0x65, 0x2f, 0x4d, 0x61, 0x74, 0x4d, 0x75, 0x6c, 0x00, 
	0x34, 0xfe, 0xff, 0xff, 0xfe, 0xfe, 0xff, 0xff, 0x04, 0x00, 0x00, 0x00, 
	0x40, 0x00, 0x00, 0x00, 0xd1, 0xf7, 0x94, 0x3e, 0x00, 0x00, 0x00, 0x00, 
	0xc1, 0x2b, 0x10, 0x3e, 0xc0, 0xd2, 0x1e, 0xbe, 0xbd, 0x64, 0x36, 0xbd, 
	0x00, 0x00, 0x00, 0x00, 0x00, 0x00, 0x00, 0x00, 0x53, 0x13, 0x52, 0x3e, 
	0x9d, 0x1d, 0x0b, 0x3e, 0x00, 0x00, 0x00, 0x00, 0x00, 0x00, 0x00, 0x00, 
	0x56, 0xcf, 0x78, 0xbd, 0x00, 0x00, 0x00, 0x00, 0x40, 0xd4, 0x94, 0xba, 
	0x00, 0x00, 0x00, 0x00, 0x00, 0x00, 0x00, 0x00, 0x32, 0xff, 0xff, 0xff, 
	0x10, 0x00, 0x00, 0x00, 0x04, 0x00, 0x00, 0x00, 0x10, 0x00, 0x00, 0x00, 
	0x1c, 0x00, 0x00, 0x00, 0x01, 0x00, 0x00, 0x00, 0x10, 0x00, 0x00, 0x00, 
	0x0a, 0x00, 0x00, 0x00, 0x64, 0x65, 0x6e, 0x73, 0x65, 0x2f, 0x62, 0x69, 
	0x61, 0x73, 0x00, 0x00, 0xb0, 0xfe, 0xff, 0xff, 0x7a, 0xff, 0xff, 0xff, 
	0x04, 0x00, 0x00, 0x00, 0x40, 0x00, 0x00, 0x00, 0x56, 0xd3, 0x65, 0xbe, 
	0x19, 0x6c, 0x9b, 0x3e, 0x93, 0x5b, 0x83, 0xbc, 0xc2, 0xc4, 0x38, 0xbe, 
	0xf3, 0x3a, 0x31, 0xbe, 0x74, 0x1c, 0x1b, 0xbd, 0x74, 0x05, 0x28, 0xbe, 
	0x58, 0xba, 0xa0, 0xbc, 0x15, 0x59, 0x0b, 0xbe, 0x64, 0x3a, 0x4f, 0xbb, 
	0x18, 0x34, 0x9c, 0x3e, 0x4b, 0x87, 0x57, 0xbe, 0x00, 0x00, 0x00, 0x00, 
	0x08, 0xe7, 0xe2, 0x3e, 0x00, 0x00, 0x00, 0x00, 0x00, 0x00, 0x00, 0x00, 
	0xae, 0xff, 0xff, 0xff, 0x10, 0x00, 0x00, 0x00, 0x03, 0x00, 0x00, 0x00, 
	0x10, 0x00, 0x00, 0x00, 0x24, 0x00, 0x00, 0x00, 0x01, 0x00, 0x00, 0x00, 
	0x10, 0x00, 0x00, 0x00, 0x0c, 0x00, 0x00, 0x00, 0x64, 0x65, 0x6e, 0x73, 
	0x65, 0x5f, 0x31, 0x2f, 0x62, 0x69, 0x61, 0x73, 0x00, 0x00, 0x00, 0x00, 
	0x04, 0x00, 0x06, 0x00, 0x04, 0x00, 0x00, 0x00, 0x00, 0x00, 0x06, 0x00, 
	0x08, 0x00, 0x04, 0x00, 0x06, 0x00, 0x00, 0x00, 0x04, 0x00, 0x00, 0x00, 
	0x04, 0x00, 0x00, 0x00, 0x84, 0x79, 0x9e, 0x3e, 0x00, 0x00, 0x0e, 0x00, 
	0x14, 0x00, 0x04, 0x00, 0x00, 0x00, 0x08, 0x00, 0x0c, 0x00, 0x10, 0x00, 
	0x0e, 0x00, 0x00, 0x00, 0x10, 0x00, 0x00, 0x00, 0x02, 0x00, 0x00, 0x00, 
	0x10, 0x00, 0x00, 0x00, 0x20, 0x00, 0x00, 0x00, 0x01, 0x00, 0x00, 0x00, 
	0x01, 0x00, 0x00, 0x00, 0x0c, 0x00, 0x00, 0x00, 0x64, 0x65, 0x6e, 0x73, 
	0x65, 0x5f, 0x32, 0x2f, 0x62, 0x69, 0x61, 0x73, 0x00, 0x00, 0x00, 0x00, 
	0x90, 0xff, 0xff, 0xff, 0x14, 0x00, 0x18, 0x00, 0x04, 0x00, 0x00, 0x00, 
	0x08, 0x00, 0x0c, 0x00, 0x10, 0x00, 0x00, 0x00, 0x00, 0x00, 0x14, 0x00, 
	0x14, 0x00, 0x00, 0x00, 0x14, 0x00, 0x00, 0x00, 0x01, 0x00, 0x00, 0x00, 
	0x18, 0x00, 0x00, 0x00, 0x44, 0x00, 0x00, 0x00, 0x34, 0x00, 0x00, 0x00, 
	0x02, 0x00, 0x00, 0x00, 0x01, 0x00, 0x00, 0x00, 0x01, 0x00, 0x00, 0x00, 
	0x1d, 0x00, 0x00, 0x00, 0x73, 0x65, 0x72, 0x76, 0x69, 0x6e, 0x67, 0x5f, 
	0x64, 0x65, 0x66, 0x61, 0x75, 0x6c, 0x74, 0x5f, 0x64, 0x65, 0x6e, 0x73, 
	0x65, 0x5f, 0x69, 0x6e, 0x70, 0x75, 0x74, 0x3a, 0x30, 0x00, 0x00, 0x00, 
	0x02, 0x00, 0x00, 0x00, 0xff, 0xff, 0xff, 0xff, 0x01, 0x00, 0x00, 0x00, 
	0xfc, 0xff, 0xff, 0xff, 0x04, 0x00, 0x04, 0x00, 0x04, 0x00, 0x00, 0x00
};
const int model_data_len = 2904;
